00001100
11010010
00110111
01111001
00100101
11001100
10001011
01111111
01010011
01110001
10011101
00101100
00000100
01011000
01101011
11100010
00110110
10111100
10010101
10111110
10101100
01010111
10000110
11100110
01110000
01000001
00101101
01000001
00111011
01011010
01101001
01010001
10110001
00000100
01110111
11000011
01101110
10110000
10110011
00111011
01000110
10111101
00110010
10101011
00111110
11111000
11010001
11011101
01101101
11011111
01100000
11101101
10100111
10111001
10110011
00100011
00010110
01111100
01110110
00100111
10010110
01011100
01000010
00000010